#ifndef GLIOMADF_MODEL_ESP32_H
#define GLIOMADF_MODEL_ESP32_H

/*
 CAUTION: This is an auto generated file.
 DO NOT EDIT OR MAKE ANY CHANGES TO IT.
 This model data was generated on Sun Nov 10 00:04:51 2024

 Tools used:
 Python:3.7.16 (default, Jan 17 2023, 16:06:28) [MSC v.1916 64 bit (AMD64)]
 Numpy:1.21.5
 TensorFlow:3.7.16 (default, Jan 17 2023, 16:06:28) [MSC v.1916 64 bit (AMD64)]
 Keras: 2.10.0

 Model details are:
 NUM_OF_EPOCHS = 100
 BATCH_SIZE    = 12
*/

const int DENSE1_SIZE = 22;
const int DENSE2_SIZE = 16;
const int DENSE3_SIZE = 8;

const unsigned int gliomadf_model_esp32_len = 6936;
alignas(8) const unsigned char gliomadf_model_esp32[] = {
0x1c,0x00,0x00,0x00,0x54,0x46,0x4c,0x33,0x14,0x00,0x20,0x00,
0x1c,0x00,0x18,0x00,0x14,0x00,0x10,0x00,0x0c,0x00,0x00,0x00,
0x08,0x00,0x04,0x00,0x14,0x00,0x00,0x00,0x1c,0x00,0x00,0x00,
0x88,0x00,0x00,0x00,0xe0,0x00,0x00,0x00,0x88,0x12,0x00,0x00,
0x98,0x12,0x00,0x00,0xa4,0x1a,0x00,0x00,0x03,0x00,0x00,0x00,
0x01,0x00,0x00,0x00,0x04,0x00,0x00,0x00,0x22,0xed,0xff,0xff,
0x0c,0x00,0x00,0x00,0x1c,0x00,0x00,0x00,0x38,0x00,0x00,0x00,
0x0f,0x00,0x00,0x00,0x73,0x65,0x72,0x76,0x69,0x6e,0x67,0x5f,
0x64,0x65,0x66,0x61,0x75,0x6c,0x74,0x00,0x01,0x00,0x00,0x00,
0x04,0x00,0x00,0x00,0x94,0xff,0xff,0xff,0x0f,0x00,0x00,0x00,
0x04,0x00,0x00,0x00,0x07,0x00,0x00,0x00,0x64,0x65,0x6e,0x73,
0x65,0x5f,0x33,0x00,0x01,0x00,0x00,0x00,0x04,0x00,0x00,0x00,
0x4e,0xee,0xff,0xff,0x04,0x00,0x00,0x00,0x0d,0x00,0x00,0x00,
0x66,0x6c,0x61,0x74,0x74,0x65,0x6e,0x5f,0x69,0x6e,0x70,0x75,
0x74,0x00,0x00,0x00,0x02,0x00,0x00,0x00,0x34,0x00,0x00,0x00,
0x04,0x00,0x00,0x00,0xdc,0xff,0xff,0xff,0x12,0x00,0x00,0x00,
0x04,0x00,0x00,0x00,0x13,0x00,0x00,0x00,0x43,0x4f,0x4e,0x56,
0x45,0x52,0x53,0x49,0x4f,0x4e,0x5f,0x4d,0x45,0x54,0x41,0x44,
0x41,0x54,0x41,0x00,0x08,0x00,0x0c,0x00,0x08,0x00,0x04,0x00,
0x08,0x00,0x00,0x00,0x11,0x00,0x00,0x00,0x04,0x00,0x00,0x00,
0x13,0x00,0x00,0x00,0x6d,0x69,0x6e,0x5f,0x72,0x75,0x6e,0x74,
0x69,0x6d,0x65,0x5f,0x76,0x65,0x72,0x73,0x69,0x6f,0x6e,0x00,
0x13,0x00,0x00,0x00,0xa4,0x11,0x00,0x00,0x9c,0x11,0x00,0x00,
0x34,0x11,0x00,0x00,0x18,0x11,0x00,0x00,0xe8,0x10,0x00,0x00,
0x98,0x10,0x00,0x00,0x80,0x10,0x00,0x00,0x88,0x08,0x00,0x00,
0xf8,0x02,0x00,0x00,0xe8,0x00,0x00,0x00,0xb8,0x00,0x00,0x00,
0xb0,0x00,0x00,0x00,0xa8,0x00,0x00,0x00,0xa0,0x00,0x00,0x00,
0x98,0x00,0x00,0x00,0x90,0x00,0x00,0x00,0x88,0x00,0x00,0x00,
0x68,0x00,0x00,0x00,0x04,0x00,0x00,0x00,0x16,0xef,0xff,0xff,
0x04,0x00,0x00,0x00,0x54,0x00,0x00,0x00,0x0c,0x00,0x00,0x00,
0x08,0x00,0x0e,0x00,0x08,0x00,0x04,0x00,0x08,0x00,0x00,0x00,
0x10,0x00,0x00,0x00,0x24,0x00,0x00,0x00,0x00,0x00,0x06,0x00,
0x08,0x00,0x04,0x00,0x06,0x00,0x00,0x00,0x04,0x00,0x00,0x00,
0x00,0x00,0x00,0x00,0x00,0x00,0x0a,0x00,0x10,0x00,0x0c,0x00,
0x08,0x00,0x04,0x00,0x0a,0x00,0x00,0x00,0x01,0x00,0x00,0x00,
0x02,0x00,0x00,0x00,0x04,0x00,0x00,0x00,0x06,0x00,0x00,0x00,
0x32,0x2e,0x31,0x30,0x2e,0x30,0x00,0x00,0x76,0xef,0xff,0xff,
0x04,0x00,0x00,0x00,0x10,0x00,0x00,0x00,0x31,0x2e,0x31,0x34,
0x2e,0x30,0x00,0x00,0x00,0x00,0x00,0x00,0x00,0x00,0x00,0x00,
0x34,0xe7,0xff,0xff,0x38,0xe7,0xff,0xff,0x3c,0xe7,0xff,0xff,
0x40,0xe7,0xff,0xff,0x44,0xe7,0xff,0xff,0x48,0xe7,0xff,0xff,
0xaa,0xef,0xff,0xff,0x04,0x00,0x00,0x00,0x20,0x00,0x00,0x00,
0xe7,0xa6,0x06,0x3f,0x46,0xb3,0x39,0x3f,0xb4,0x91,0x8f,0xbf,
0x71,0x94,0x59,0xbf,0xaf,0xae,0x8b,0xbf,0xc0,0x72,0x0b,0x3f,
0xb4,0x12,0x3c,0xbf,0x81,0x7f,0x2f,0xbf,0xd6,0xef,0xff,0xff,
0x04,0x00,0x00,0x00,0x00,0x02,0x00,0x00,0x75,0x7e,0x03,0x3c,
0xde,0x07,0x9c,0xbe,0xe3,0xbe,0x2b,0x3e,0x51,0x84,0xd4,0xbe,
0xd8,0x43,0x91,0xbe,0x08,0x84,0xa5,0xbe,0xb8,0xfe,0x6d,0xbe,
0x1b,0x8c,0x21,0xbd,0x20,0x26,0xcc,0xbe,0x8b,0xa7,0x71,0xbe,
0x39,0xb7,0xaf,0x3e,0x40,0xd9,0xd4,0xbd,0x81,0x09,0xd9,0x3b,
0xa7,0xc3,0xce,0xbe,0x45,0x43,0x02,0xbe,0xb9,0xd7,0xbf,0x3e,
0x26,0x77,0xde,0x3e,0x82,0xda,0x7f,0xbf,0x33,0x00,0x3a,0x3f,
0xf2,0xbc,0x0c,0x3f,0xef,0x9d,0x9f,0x3f,0xb5,0xa1,0xe0,0x3e,
0xac,0x46,0x4b,0xbe,0x81,0x17,0xf3,0xbd,0xd8,0x8c,0x65,0x3f,
0x90,0x14,0x41,0x3f,0x47,0x45,0x00,0xbc,0xd3,0xb2,0x88,0xbe,
0x0c,0xf6,0x0d,0xbd,0xbd,0xdd,0x25,0x3f,0xe8,0x66,0x1f,0xbf,
0x0f,0x0f,0xc5,0xbe,0xba,0x21,0x1d,0x3f,0x2c,0xc2,0x96,0x3f,
0xae,0x8e,0xac,0xbe,0x72,0x5a,0x92,0x3e,0x79,0x24,0x23,0xbf,
0x44,0xdc,0x3f,0xbf,0x95,0xd4,0xdf,0x3d,0xfe,0x5e,0xcb,0x3e,
0x18,0x5b,0x94,0xbe,0x8f,0x27,0x9d,0x3e,0x80,0x69,0x45,0xbe,
0x64,0xe8,0xfe,0xbc,0x76,0xbd,0x96,0x3d,0x7d,0xa7,0xd7,0xbe,
0x74,0x31,0xb7,0x3c,0xc5,0x22,0x27,0x3f,0xf0,0xdc,0xe2,0x3e,
0x7c,0xc3,0x2a,0x3f,0xbc,0xc4,0xa7,0xbe,0x3d,0x39,0xe8,0xbe,
0x4e,0x1a,0x47,0xbf,0x18,0xa9,0x56,0xbe,0x22,0x49,0x02,0x3f,
0xf0,0xaf,0x18,0x3f,0x83,0x04,0xec,0xbe,0x8c,0x66,0x28,0xbf,
0x44,0xfd,0x7e,0x3e,0x42,0x03,0x37,0xbe,0x84,0xdc,0xee,0xbe,
0x4d,0x8e,0x86,0x3e,0x40,0xf2,0x3d,0x3f,0x69,0x18,0xe0,0x3e,
0x4c,0x09,0x2a,0x3f,0x4e,0xb2,0x3e,0x3f,0x58,0xd8,0xfb,0xbe,
0x4e,0x60,0x97,0xbe,0x94,0x7d,0x91,0xbf,0x1f,0x4c,0x69,0xbf,
0x7e,0xdb,0xda,0x3e,0x22,0x3e,0x7b,0x3e,0xde,0xa1,0x1d,0x3e,
0xfb,0xe8,0xab,0xbe,0x2d,0x7b,0x6a,0xbe,0x5d,0xc8,0x7b,0xbb,
0x85,0xfa,0x85,0x3e,0xe5,0x37,0xbc,0x3d,0x7a,0xd5,0x0e,0x3f,
0xfa,0x80,0x14,0x3f,0xb8,0x56,0x8b,0xbc,0x84,0xb1,0xf0,0xbe,
0x07,0x3c,0x54,0x3f,0x94,0x72,0xa0,0x3e,0x91,0xf9,0xad,0x3f,
0xce,0xd6,0x8d,0x3f,0x0e,0x05,0x03,0x3e,0x45,0xe0,0xc2,0xbe,
0xb2,0x8f,0x18,0x3f,0xf6,0x50,0xc5,0xbd,0x66,0x19,0x39,0x3f,
0x38,0x46,0xf1,0x3e,0x3c,0xc2,0xbb,0x3e,0x76,0xea,0x5d,0x3e,
0x9b,0xe7,0xb0,0xbe,0x63,0x4b,0xf8,0xbd,0xd7,0xc5,0x76,0xbd,
0x34,0x8e,0x70,0x3f,0x77,0xf9,0xd4,0x3d,0xe0,0x89,0x1e,0xbe,
0xbd,0xb4,0x55,0xbf,0xeb,0x87,0xdc,0xbe,0x13,0xff,0xaf,0x3d,
0xb0,0xa2,0x19,0x3f,0xde,0x06,0xbb,0x3e,0xcf,0x14,0x8f,0x3e,
0xb0,0xa0,0x01,0xbf,0xf0,0xf4,0x70,0x3e,0x4e,0xfe,0x6e,0x3e,
0xfd,0x67,0xdd,0xbc,0x01,0x29,0x08,0x3f,0xdf,0xaa,0x20,0x3f,
0xdd,0x98,0x18,0x3f,0x33,0xf7,0x9d,0x3f,0xb3,0x3a,0xe5,0x3d,
0x34,0x83,0xcd,0xbe,0x2c,0xdd,0x85,0xbf,0x04,0x3f,0x72,0xbf,
0x6d,0xf1,0x1f,0x3f,0x75,0x3f,0xdf,0xbd,0x20,0x56,0x00,0xbd,
0xfc,0x57,0xdf,0xbe,0x1a,0x7d,0xd8,0xbd,0xde,0xff,0x9d,0xbd,
0x2b,0xf6,0xe1,0xbd,0x05,0xb3,0x21,0x3d,0x44,0xdd,0xcd,0x3d,
0xbf,0x32,0xde,0x3e,0xe2,0xf1,0xff,0xff,0x04,0x00,0x00,0x00,
0x80,0x05,0x00,0x00,0xe3,0x31,0xe1,0xbe,0x0b,0x94,0x84,0x3e,
0x21,0x7c,0x8d,0x3d,0x27,0x81,0x4b,0x3d,0xf6,0x24,0xcd,0xbd,
0x79,0xfc,0x06,0x3f,0x23,0x6c,0x20,0x3e,0x31,0x1f,0x26,0x3e,
0x9c,0x1f,0xf5,0xbd,0xb4,0x94,0xea,0x3e,0x86,0x16,0x0f,0x3e,
0x07,0x96,0xc1,0xbe,0xb1,0x07,0x9c,0xbe,0x7d,0x90,0xe3,0x3e,
0x81,0x05,0xe8,0x3e,0xc9,0x51,0xd5,0x3e,0xf7,0xe5,0xd5,0x3e,
0x5b,0x7b,0x37,0xbd,0x48,0x1c,0x27,0xbf,0x7f,0x36,0x12,0x3f,
0xd7,0xb7,0x9d,0xbd,0x8d,0xb6,0xd3,0x3d,0xc5,0x6c,0xdb,0x3d,
0xa9,0x5c,0x3a,0xbd,0x9a,0x1e,0xa4,0xbd,0x1a,0xbc,0xa0,0xbe,
0x54,0x63,0x9e,0x3e,0xb0,0xa8,0xde,0xbd,0xff,0xbd,0xc0,0x3e,
0x2c,0x9d,0x23,0x3e,0xa7,0xa1,0x16,0xbf,0xd1,0x2f,0x34,0x3f,
0x55,0x3d,0x14,0x3d,0xe6,0x10,0x60,0x3e,0x3b,0xc1,0x1c,0xbf,
0xfd,0x09,0x38,0xbd,0xed,0x07,0x2c,0x3f,0x41,0x2f,0x59,0xbe,
0xf3,0xc0,0x94,0x3d,0xc7,0x97,0x30,0xbf,0x42,0xb8,0x63,0xbe,
0x5c,0x7a,0x0e,0xbf,0xca,0x6a,0x85,0xbe,0x5c,0x6a,0x82,0xbe,
0x4d,0xca,0x43,0x3c,0x71,0x9f,0xe5,0xbe,0xc6,0xba,0x8f,0x3e,
0x23,0x8d,0x82,0x3e,0xbf,0xd2,0x6b,0x3f,0x22,0x54,0xa8,0x3e,
0xd9,0x33,0xe5,0x3d,0xbb,0xdf,0x1a,0xbe,0x39,0x42,0x66,0xbd,
0x64,0xe3,0x29,0xbf,0x3f,0xba,0xce,0x3d,0x20,0x66,0x38,0x3f,
0xff,0xf1,0xcb,0xbe,0xcd,0x45,0x12,0xbf,0x68,0xfc,0x45,0xbe,
0x5e,0x0e,0xe4,0x3e,0x83,0x6e,0xd7,0xbe,0x8e,0x82,0x7a,0xbe,
0x96,0x71,0x16,0x3e,0xed,0x87,0xa9,0xbd,0x58,0x5e,0x82,0x3d,
0x29,0xce,0x6f,0x3e,0xb7,0x82,0x0f,0xbe,0xef,0x34,0x76,0x3c,
0xd7,0xbe,0x6b,0x3e,0x3b,0x77,0xbd,0xbd,0xe6,0xcb,0xcc,0xbe,
0x64,0x83,0x05,0xbe,0xe9,0x7c,0xca,0x3d,0x4c,0xb4,0x65,0x3e,
0xf9,0xcd,0xe4,0x3e,0x0c,0x6c,0xef,0xbe,0xd1,0x19,0x26,0xbd,
0x10,0xd0,0x11,0x3f,0x4a,0x77,0x70,0x3d,0x10,0x2b,0x4a,0xbe,
0x78,0x7a,0x83,0x3e,0x89,0xb7,0xc6,0x3e,0x2c,0x17,0x14,0xbd,
0x35,0x19,0xd1,0x3e,0x17,0xbc,0x45,0x3f,0x04,0xf1,0x87,0x3d,
0x88,0x85,0x5a,0x3e,0x19,0xf5,0x13,0x3f,0x88,0x30,0x1b,0x3e,
0xba,0x6b,0x24,0xbf,0x5b,0x56,0xb8,0x3e,0x8d,0xa1,0x1f,0x3e,
0x02,0x78,0x94,0x3f,0xc6,0x8d,0xe6,0xbd,0x15,0x45,0x51,0x3d,
0xdf,0xb7,0x20,0xbf,0x35,0xde,0x11,0x3d,0x97,0xf1,0xe7,0xbe,
0x83,0xa0,0xea,0xbe,0xbd,0x4d,0x00,0x3f,0xcd,0x14,0xb5,0xbd,
0xb6,0x72,0xa8,0xbe,0x51,0xf6,0xb5,0x3e,0x8e,0x07,0xae,0x3e,
0x0b,0x25,0xa6,0xbe,0x62,0xb4,0xae,0x3d,0x00,0x5a,0x27,0x3f,
0x52,0x33,0x47,0xbe,0x8f,0xf0,0xfd,0x3e,0xf8,0xe9,0xd9,0x3d,
0x43,0x07,0xc1,0xbe,0xf9,0x1d,0xfb,0xbe,0x24,0xe5,0xd0,0x3d,
0xe2,0xeb,0xf3,0xbe,0x1b,0xdc,0xc8,0x3e,0x58,0xe9,0x14,0xbe,
0xde,0xa1,0x4d,0x3e,0xbb,0x11,0x57,0xbd,0x83,0x7e,0xae,0xbe,
0x78,0xd7,0xcb,0xbe,0x17,0xb7,0x90,0xbe,0xba,0xd3,0xcd,0xbe,
0x86,0xc4,0xd8,0xbe,0x5c,0xfb,0x81,0xbd,0xd5,0xf7,0xa4,0x3d,
0x67,0x58,0xe4,0xbe,0xa5,0xeb,0x93,0x3e,0xcc,0x3a,0x1a,0xbc,
0x1c,0x57,0xf0,0x3e,0x95,0xf7,0x01,0x3e,0x8f,0xa1,0xe4,0x3e,
0xcc,0x58,0x15,0x3e,0x85,0xfe,0x1a,0xbd,0xc5,0x79,0xf6,0x3e,
0xa9,0x53,0x0d,0x3f,0x83,0x07,0x75,0x3e,0xb4,0xfe,0x6d,0x3d,
0xe9,0x8f,0x13,0x3f,0x2e,0x18,0x92,0xbe,0x28,0x08,0x99,0x3e,
0xc3,0x6f,0xca,0xbe,0x40,0x21,0xa8,0xbd,0x82,0xba,0x3f,0x3c,
0x9a,0x4a,0xea,0xbe,0xcc,0x41,0xaa,0xbd,0x34,0xfb,0x6e,0x3e,
0x17,0x78,0xec,0x3e,0x70,0x10,0x0a,0x3d,0x30,0x1f,0x5e,0xbd,
0xc1,0xd3,0x09,0xbf,0x25,0x52,0x6a,0xbf,0x64,0x42,0x29,0xbd,
0xb4,0x17,0x36,0x3e,0x4a,0x65,0x19,0xbe,0x5d,0x2b,0x44,0xbe,
0x1f,0x54,0xa0,0x3e,0x87,0x19,0x09,0x3f,0x49,0x5e,0x38,0xbf,
0x80,0xfa,0xc8,0x3d,0xb4,0xcd,0x8d,0x3e,0xce,0xa5,0x5a,0xbf,
0xbb,0xac,0x5b,0x3e,0x7b,0x79,0x2d,0xbf,0x3d,0x9e,0x5c,0x3e,
0x89,0x58,0xea,0x3e,0x98,0x23,0x40,0xbd,0x6b,0x42,0xe8,0xbc,
0x99,0x87,0x0c,0x3e,0x45,0xb5,0x03,0x3f,0x88,0x1a,0x29,0x3e,
0x4f,0x67,0xbf,0x3e,0xad,0x4c,0xda,0xbe,0x12,0xf6,0x0c,0xbf,
0x06,0xbf,0x55,0x3e,0x3e,0x17,0x4e,0x3e,0xe6,0x2a,0xeb,0xbe,
0x61,0x00,0x91,0xbe,0x8c,0x5f,0x88,0xbe,0xf0,0xdd,0x66,0xbd,
0xdf,0x27,0xf4,0x3e,0xe7,0xa1,0x89,0x3d,0x1b,0x71,0xfe,0x3d,
0x60,0xc2,0x33,0x3f,0x17,0xe0,0x03,0x3e,0xc2,0x18,0xb2,0x3d,
0x3c,0xf7,0xa7,0xbe,0xba,0x16,0x80,0xbd,0xfd,0xe4,0x10,0x3d,
0x0d,0x28,0x8b,0x3e,0x92,0x81,0x14,0xbd,0xe3,0xae,0xba,0xbe,
0x1e,0xc5,0xab,0x3e,0xcd,0xbf,0x18,0x3d,0xdc,0xd1,0xf8,0x3e,
0x81,0x6e,0xcd,0x3e,0x5a,0xb5,0x48,0xbe,0x29,0xb0,0xbe,0x3e,
0xb4,0xaf,0x09,0x3f,0x1c,0xa9,0x12,0x3f,0xdb,0x80,0x06,0x3e,
0xa1,0xd6,0x11,0xbd,0x91,0x75,0x81,0xbd,0x27,0xa4,0x3c,0xbf,
0xe0,0x17,0xcf,0xbe,0xff,0x5e,0x97,0x3e,0x41,0xa4,0x15,0xbd,
0x39,0xe0,0x9b,0xbe,0xf5,0x14,0x45,0x3c,0xcd,0x87,0x88,0x3d,
0x61,0x6f,0xe8,0x3e,0x27,0x9a,0xb6,0xbe,0xc1,0xb2,0x44,0x3e,
0x43,0xfd,0x6a,0xbe,0xcb,0x83,0xb2,0xbd,0x40,0xa6,0x64,0xbc,
0x7c,0x3d,0xd1,0x3e,0x6a,0xbb,0x08,0x3f,0x90,0x11,0x44,0xbe,
0xfe,0x14,0x1f,0x3d,0xb8,0x12,0x5f,0xbe,0x8c,0xbb,0xed,0x3e,
0xfa,0x1a,0xc8,0x3e,0x47,0xa5,0x24,0xbf,0x68,0xdb,0xba,0xbe,
0x52,0x40,0xcc,0x3e,0xe4,0xc2,0xfc,0xbc,0x3a,0xaa,0xab,0x3d,
0x77,0xa1,0xc8,0x3d,0x36,0x02,0x63,0x3e,0xe1,0xf8,0xa8,0x3d,
0x39,0xaa,0xd8,0x3d,0xc7,0x10,0x97,0x3e,0xd7,0x06,0x32,0xbc,
0x4c,0xd8,0x7c,0xbe,0xe2,0xe4,0x66,0xbe,0x8a,0xd8,0xb7,0x3d,
0xae,0x3c,0x84,0x3e,0x54,0x71,0x42,0xbe,0xbf,0x68,0x3b,0x3f,
0xc6,0xe9,0x20,0x3e,0x6c,0xdd,0x20,0x3f,0xc6,0xe3,0x92,0xbe,
0xf8,0x56,0xc6,0xbe,0x55,0x9b,0xd7,0xbe,0x28,0xb7,0xf4,0xbe,
0x15,0xac,0xde,0xbd,0x97,0xd1,0x5e,0x3e,0xe9,0xbf,0xf0,0xbb,
0xb2,0xe7,0x37,0x3e,0x4d,0xd3,0x17,0x3d,0x03,0x6f,0x17,0x3e,
0xe2,0xa8,0xec,0xbd,0xcd,0xee,0x44,0x3e,0xf5,0x13,0x36,0xbe,
0x7e,0x61,0x91,0x3e,0xf6,0x72,0x74,0xbe,0x51,0x90,0x43,0xbe,
0x7f,0x39,0x47,0x3e,0x5b,0x5c,0xbc,0xbe,0x4a,0x73,0xe1,0xbe,
0x12,0x7b,0xdd,0x3d,0x54,0x05,0xb5,0xbe,0x2e,0xdd,0x8f,0xbe,
0xa9,0x7e,0x75,0xbe,0x74,0xe4,0x3d,0x3e,0xca,0x26,0x86,0x3e,
0x66,0x28,0xc7,0xbd,0x39,0xd5,0x24,0xbe,0x8a,0x20,0xb8,0xbe,
0xda,0x21,0xab,0xbe,0x3b,0xb7,0x7e,0xbe,0xce,0x25,0x4b,0xbd,
0xf4,0xe0,0x0e,0xbe,0x95,0x13,0xc0,0x3e,0x43,0xdb,0x16,0xbd,
0x0c,0x11,0xa8,0xbd,0x05,0xe1,0x2e,0x3e,0x50,0xa3,0xbc,0x3d,
0x7b,0x3e,0x3e,0x3e,0xdf,0xef,0xab,0x3e,0x54,0x7f,0xc8,0x3e,
0x07,0x7a,0xf1,0xbe,0xd0,0x89,0xcd,0x3d,0x87,0x49,0x89,0x3e,
0x2d,0x8b,0x2b,0x3e,0x6b,0x96,0x3b,0xbe,0x23,0xca,0x90,0x3e,
0x42,0x55,0xd0,0x3c,0xeb,0xec,0x96,0xbe,0x03,0x51,0x9f,0x3e,
0x68,0xf5,0xb3,0x3e,0xfd,0x2a,0xe6,0xbe,0xfc,0x16,0x68,0xbe,
0x2d,0x6f,0x16,0x3f,0x4e,0x1e,0x84,0xbe,0xf1,0xc0,0x9d,0xbe,
0x6c,0x0e,0x15,0x3f,0xbd,0x03,0xbd,0x3e,0xd5,0xca,0xcd,0xbd,
0xac,0x0f,0x98,0xbe,0xed,0xe7,0x35,0x3e,0xc5,0x80,0x69,0xbe,
0xd2,0xda,0x75,0x3e,0xe8,0xbb,0x40,0x3e,0x3a,0x7b,0xc6,0x3e,
0x4f,0xa0,0x01,0x3e,0x3c,0xf0,0x20,0x3f,0xac,0x90,0x51,0x3e,
0x5f,0x0f,0x9c,0xbe,0x78,0xc5,0xa2,0x3e,0xce,0x45,0xe0,0x3e,
0x52,0x36,0x3b,0xbe,0xfb,0x9a,0xb6,0x3e,0xb4,0xa6,0xfb,0x3e,
0x70,0x8c,0x5d,0xbd,0x77,0x94,0x2a,0x3e,0x30,0xd6,0xae,0xbe,
0xb3,0x89,0x8e,0x3e,0x92,0xe2,0x04,0xbe,0x72,0x0b,0xc8,0x3c,
0x17,0x16,0x7b,0x3e,0x79,0x15,0xc9,0x3d,0xd7,0x72,0xe9,0xbc,
0x9c,0x6c,0x1d,0xbf,0xa4,0x07,0x64,0xbe,0x50,0xfa,0xa1,0xbe,
0x43,0xe6,0x3d,0xbe,0x5c,0x99,0xc6,0x3d,0xc7,0x60,0xcd,0xbd,
0xe2,0x59,0xe1,0xbd,0x32,0x38,0xa7,0xbe,0x98,0x3a,0x3a,0x3d,
0xe2,0x0f,0x2c,0xbe,0xdf,0xb8,0x59,0x3e,0xd1,0x38,0x5b,0x3b,
0x2b,0x47,0x7b,0x3e,0xc5,0x6e,0x2f,0x3d,0x90,0x32,0xe1,0x3d,
0x69,0x41,0x57,0xbe,0xed,0x72,0x0f,0x3f,0xa0,0x23,0xd6,0x3e,
0x8b,0xfc,0x1e,0xbf,0x10,0x3d,0x8b,0xbe,0x3a,0xbc,0xea,0x3e,
0x08,0x59,0xfc,0x3e,0xd6,0x3d,0xae,0x3d,0xac,0x1e,0x2a,0xbe,
0x02,0xfb,0x56,0x3d,0x9b,0xb2,0x01,0xbf,0x7c,0xf8,0x2c,0x3e,
0x35,0x56,0x2b,0xbe,0x76,0xeb,0xf2,0x3d,0x6e,0xf7,0xff,0xff,
0x04,0x00,0x00,0x00,0xe8,0x07,0x00,0x00,0xfb,0xc3,0x26,0x3e,
0xb9,0xc8,0x15,0x3d,0xda,0x76,0x97,0x3c,0xaa,0xab,0xa9,0x3e,
0xdc,0x30,0x0c,0x3e,0xe8,0xea,0x75,0xbe,0xea,0x8f,0x0c,0x3e,
0xbf,0x33,0xa6,0x3e,0x25,0x8f,0x71,0xbf,0xf9,0xdb,0x1f,0xbf,
0xe4,0x8d,0x24,0xbf,0xe8,0xe2,0xf8,0xbe,0xf5,0x5d,0x9b,0x3d,
0xc2,0x63,0x25,0xbd,0xca,0x05,0xe8,0x3c,0x71,0x06,0x69,0xbe,
0x9e,0xf2,0x19,0xbf,0x5a,0x6c,0xd1,0xbe,0xb3,0x90,0x43,0xbe,
0xd5,0x73,0xc1,0xbd,0xfe,0x63,0x47,0x3e,0xc0,0xee,0x9d,0xbd,
0x37,0x73,0xac,0x3e,0xc9,0xb1,0xd5,0xbd,0x80,0x1e,0x89,0xbe,
0x18,0x4e,0x01,0x3f,0x67,0x6e,0xed,0x3e,0xcc,0xb2,0xa3,0x3e,
0x71,0xf1,0x1e,0xbf,0x94,0x42,0xd9,0x3d,0x0f,0xe4,0x82,0x3e,
0x7e,0x13,0x28,0x3c,0x25,0x27,0xba,0x3d,0xbc,0xb6,0xb0,0x3d,
0x8c,0xd5,0xae,0x3d,0xdb,0xb3,0x50,0xbd,0x81,0x6b,0xd0,0x3d,
0x7e,0xae,0x9b,0x3e,0xb4,0x17,0x7e,0x3e,0x85,0x1e,0xe0,0x3d,
0x6e,0x4c,0x39,0x3e,0xf6,0x4d,0xd8,0x3b,0xf8,0x2a,0xe4,0x3e,
0xe2,0x0a,0xca,0x3d,0xf6,0xbe,0xf2,0xbd,0xfe,0x40,0x17,0xbe,
0x84,0xa4,0x54,0x3e,0x3f,0x09,0xf4,0xbc,0xf1,0x84,0xe4,0x3e,
0xc2,0x3c,0x9c,0xbe,0x41,0xc9,0x73,0xbe,0x40,0xc9,0xd0,0x3d,
0x4a,0x25,0xf0,0xbe,0x55,0xfd,0xbe,0xbd,0xab,0xbd,0xc1,0x3e,
0x5b,0x51,0x76,0x3e,0x8d,0xf4,0x58,0x3e,0xb0,0xe1,0x04,0x3e,
0x74,0x42,0x2e,0x3e,0xd7,0x9e,0x16,0x3e,0x62,0x7f,0x24,0x3f,
0x73,0x53,0x00,0x3f,0x0a,0xa2,0x06,0x3f,0x1c,0x64,0x89,0x3d,
0x37,0xa8,0x2a,0x3f,0xfb,0x01,0x2a,0xbe,0xfc,0x9c,0x35,0x3e,
0xa6,0xab,0xe8,0xbd,0x47,0x6d,0xfa,0x3c,0xb0,0x6f,0x8a,0xbe,
0xb3,0xf8,0xb7,0x3e,0x98,0xae,0x1c,0xbf,0x1f,0x79,0x0f,0x3d,
0x97,0x18,0x01,0xbf,0x48,0xcb,0xd0,0xbd,0x22,0x78,0x77,0xbe,
0x85,0xb3,0x84,0xbd,0x1b,0xa8,0xcf,0x3d,0x4c,0x36,0x18,0x3e,
0x32,0xa6,0x92,0x3e,0xbe,0x63,0xb8,0x3e,0x98,0x52,0x29,0x3d,
0xec,0xe9,0x91,0x3e,0xa6,0x10,0x4c,0xbe,0x8b,0x72,0xe5,0x3d,
0x09,0x1b,0x63,0x3d,0x31,0x3d,0x40,0xbe,0xdb,0x08,0x10,0x3f,
0xb3,0x18,0xd9,0xbe,0x87,0x77,0xd8,0x3e,0xca,0x6e,0x1f,0x3f,
0xb1,0x01,0x4b,0xbe,0xab,0x47,0xda,0xbe,0x87,0x48,0xad,0xbe,
0x9b,0x82,0xfb,0xbe,0xe1,0x6f,0x92,0x3e,0x52,0xc6,0x4e,0xbc,
0x91,0x53,0xa1,0xbd,0xfc,0x48,0xdf,0xbe,0x10,0xf7,0xff,0xbe,
0x7f,0x10,0x8b,0x3e,0x4d,0xf6,0x35,0x3c,0x37,0x34,0x72,0x3e,
0xaa,0xca,0x48,0x3d,0x8f,0x3c,0x9f,0x3e,0x40,0x9a,0xb0,0x3e,
0x58,0x3d,0x8f,0xbe,0x64,0xc3,0x1e,0x3f,0x26,0xd8,0x2b,0x3e,
0xa5,0x77,0x2c,0xbe,0xbf,0x33,0x1c,0x3f,0x93,0x95,0xa0,0x3d,
0xce,0xfe,0x86,0xbd,0xeb,0x35,0x1c,0xbe,0x79,0xe6,0x67,0x3e,
0xe5,0x63,0xa3,0x3e,0xe1,0xb9,0x0e,0x3f,0xee,0xa1,0x89,0xbe,
0x14,0xfc,0x9c,0x3e,0xb5,0x46,0x74,0x3e,0xc5,0xc4,0x8f,0x3d,
0xe9,0x31,0x5a,0xbd,0xdb,0xaa,0x83,0x3e,0xb6,0x86,0xcb,0xbc,
0xa1,0x6b,0xbb,0xbe,0x7a,0x02,0x31,0x3e,0x1f,0x5e,0xe2,0x3e,
0x40,0x0a,0xee,0x3d,0xd9,0xbc,0x82,0x3e,0x6b,0x74,0x3e,0x3e,
0x6a,0xc2,0xd0,0x3e,0x5f,0xcc,0xbd,0x3e,0x71,0x64,0x22,0x3e,
0x10,0x89,0x1a,0xbf,0x61,0x74,0x95,0x3e,0x0a,0x57,0x82,0x3e,
0x0b,0x74,0x7c,0xbe,0xa1,0xb5,0xe6,0xbd,0x33,0x6a,0x10,0xbe,
0x04,0x47,0xf1,0x3e,0xd0,0xcb,0xe4,0xbe,0xd4,0xbb,0x57,0xbe,
0x96,0x6e,0x07,0x3f,0x5a,0x3c,0x1a,0x3f,0x94,0x33,0xbb,0x3c,
0xfa,0x3c,0x6e,0xbe,0xa2,0x1d,0x1e,0xbc,0x0d,0xfe,0x9c,0x3e,
0x71,0xe6,0xde,0x3e,0xc0,0x15,0x9b,0xbd,0x86,0xb6,0x94,0xbe,
0xb5,0x7e,0xb3,0xbe,0xfb,0x98,0xfc,0xbe,0xdb,0x99,0x1e,0x3d,
0xff,0x58,0xa6,0xbd,0x6c,0x05,0x49,0x3e,0x18,0x73,0xfc,0xbd,
0xe2,0xce,0x8b,0x3e,0x83,0x30,0xa1,0xbd,0xc3,0x61,0x1b,0xbd,
0xf0,0x20,0xa9,0x3e,0x77,0xc7,0x19,0xbd,0x3c,0xc5,0xc5,0xbe,
0xad,0x86,0x6e,0x3e,0x19,0x2d,0xed,0x3e,0x62,0xa3,0xe5,0xbd,
0x58,0xae,0xec,0x3d,0x6f,0x13,0x7d,0x3e,0xe2,0xbc,0x8a,0x3d,
0x5e,0x14,0x08,0x3f,0x94,0x64,0xc0,0x3e,0x08,0x16,0x4f,0xbe,
0xa5,0xaa,0x93,0xbe,0xde,0xf6,0x7b,0x3e,0xbc,0x39,0x1b,0xbe,
0xb5,0xc6,0xde,0x3c,0x7b,0x2e,0x32,0x3d,0x3d,0xf0,0x8e,0xbe,
0x40,0xe3,0x9c,0x3e,0x0b,0x6c,0x9a,0x3e,0x30,0xae,0xaf,0xbd,
0x38,0xe5,0x5c,0x3d,0x61,0xcc,0x37,0x3c,0x83,0x79,0x6f,0x3e,
0x24,0x86,0xec,0xbd,0xa6,0x33,0xd3,0xbd,0x2e,0xd1,0x77,0xbe,
0x83,0xa0,0x91,0x3e,0x7a,0xac,0x09,0xbd,0x95,0x3e,0xee,0x3d,
0xc6,0x19,0x75,0x3d,0xd9,0xa9,0x8a,0x3d,0x46,0x58,0x05,0x3f,
0x62,0x8d,0xd5,0x3e,0x83,0x27,0x84,0xbe,0x71,0xfa,0xdf,0x3e,
0x37,0x82,0xc1,0x3d,0xca,0x32,0x62,0x3e,0x72,0x7d,0x25,0xbd,
0x61,0xa2,0x98,0x3e,0x4e,0x2c,0x74,0x3e,0xbe,0xc7,0x93,0xbe,
0xf6,0x3c,0x3b,0xbe,0xf1,0xdd,0x1d,0xbf,0x03,0x25,0x42,0xbd,
0x82,0xec,0x4b,0xbe,0xdc,0xee,0xe4,0xbe,0x6d,0x07,0x71,0x3e,
0x38,0x12,0xcd,0xbc,0x29,0x73,0xbf,0x3e,0xa9,0x32,0xf0,0xbd,
0x6d,0x34,0xad,0xbe,0xf4,0x3f,0x28,0x3d,0xe6,0x0f,0x02,0xbf,
0xc8,0x29,0xdd,0xbc,0x4f,0x00,0x09,0x3d,0x88,0x10,0x81,0x3e,
0x6b,0xfa,0x91,0xbe,0x04,0x02,0xb4,0xbd,0x08,0xab,0x65,0x3e,
0x5c,0x09,0x6b,0xbd,0x20,0xb9,0x9a,0x3e,0xdb,0x11,0x2d,0x3e,
0xff,0xf8,0x38,0x3e,0x37,0xf4,0x80,0xbc,0xac,0x29,0x45,0x3e,
0xcb,0xbc,0xf8,0x3e,0xc4,0xd6,0xc3,0xbe,0x29,0x41,0xc2,0xbe,
0x56,0x58,0x8d,0x3e,0x97,0x54,0x69,0x3d,0x00,0x14,0xa7,0xbe,
0x5d,0x71,0xa0,0x3e,0xc1,0xd6,0x7b,0x3e,0x90,0x4e,0xb6,0xbe,
0xa3,0xe7,0x98,0xbe,0x29,0x46,0xfa,0x3d,0x94,0x1d,0x0b,0x3e,
0x31,0x91,0x87,0xbe,0x41,0x07,0x59,0x3e,0x35,0xeb,0xe8,0x3d,
0x13,0x4e,0x8a,0x3e,0x95,0x63,0xbe,0xbc,0x08,0x03,0xc4,0x3e,
0xcc,0x42,0xd1,0x3e,0xe4,0x8d,0xd1,0x3e,0x87,0x8b,0x89,0x3d,
0x8d,0x21,0x0d,0x3e,0x4b,0xbf,0x80,0x3e,0xf4,0xfa,0xde,0x3e,
0x83,0x68,0xc6,0x3d,0x28,0x67,0xfd,0xbe,0x1b,0x4b,0x5a,0xbe,
0x7e,0xc0,0x7e,0x3e,0xf6,0xf1,0x16,0x3e,0x6c,0xec,0xce,0x3d,
0x11,0x3f,0xe3,0x3e,0x6f,0xc9,0x65,0xbe,0x01,0x2e,0x53,0xbe,
0xc2,0xc6,0x28,0xbe,0xb4,0x7b,0x84,0x3e,0x0f,0xfc,0xde,0x3d,
0xad,0xe1,0x21,0xbf,0xd8,0x70,0xe4,0x3d,0xf0,0xb8,0xd1,0x3e,
0x2e,0x28,0xee,0xbe,0x64,0x0e,0x53,0x3d,0xbe,0x0e,0xe3,0xbe,
0xaf,0xd6,0x02,0xbe,0x20,0x4b,0x66,0x3e,0x91,0x6d,0xc8,0xbe,
0xc3,0x83,0x96,0x3e,0x12,0xf5,0x02,0x3e,0xa7,0xf4,0x9b,0x3e,
0x10,0x56,0x94,0x3e,0xb4,0xa3,0x84,0x3e,0x5f,0x0c,0x41,0x3e,
0x5c,0x69,0xce,0xbe,0x3f,0xb6,0xf0,0xbc,0xea,0x6a,0x5c,0x3e,
0x92,0x0f,0xa4,0xbe,0xac,0x07,0xab,0xbe,0x44,0xb0,0x35,0x3d,
0xee,0x07,0x6b,0xbd,0x8e,0x3d,0x37,0x3c,0x88,0x5c,0x09,0x3f,
0xdc,0xea,0x81,0x3e,0x21,0x6c,0xa0,0xbd,0x28,0xca,0x92,0xbe,
0x1e,0x5e,0xc3,0x3e,0x4d,0x86,0x3f,0x3d,0xcb,0xb3,0x94,0xbe,
0x6b,0x78,0x01,0xbe,0x86,0x1e,0x0b,0xbf,0x52,0x7e,0x6c,0xbe,
0x35,0x06,0x93,0xbd,0x58,0x51,0xbd,0x3c,0x29,0xbd,0xfb,0x3d,
0xc3,0x92,0xf9,0xbe,0x8c,0xf8,0x2b,0xbe,0xdb,0xa7,0x6c,0x3e,
0xdd,0x3a,0x0b,0x3f,0x71,0x58,0x94,0xbd,0x44,0xeb,0x04,0xbd,
0xec,0x9c,0x0b,0x3d,0x8a,0x4e,0x95,0x3e,0xde,0xd3,0x05,0xbc,
0xe6,0x51,0xf0,0xbd,0x13,0x08,0x34,0x3e,0x71,0xe5,0xfe,0xbd,
0xb9,0x89,0x8e,0x3d,0x96,0x5f,0xa0,0x3e,0xd8,0x02,0x76,0x3d,
0x16,0x75,0xb6,0x3e,0x31,0x09,0x24,0xbf,0x8e,0xb8,0xed,0xbe,
0xdd,0x15,0x6e,0x3e,0xaa,0x49,0x8d,0x3d,0x49,0xb2,0x5e,0x3d,
0x0e,0x46,0x9c,0xbe,0xc7,0xd4,0xb9,0xbe,0xf9,0x46,0x51,0xbe,
0xb5,0xdb,0xb4,0x3e,0xba,0xa9,0x77,0x3e,0x9d,0xdc,0x52,0xbd,
0x6b,0x9e,0x52,0xbb,0x23,0xd0,0x64,0xbe,0xeb,0x7a,0x76,0xbe,
0xc6,0xba,0xd9,0xbd,0x25,0x72,0xb4,0x3e,0xd8,0xd1,0x7e,0x3e,
0x4b,0x71,0x93,0x3d,0xbc,0x15,0x12,0x3e,0x5a,0x70,0x8b,0xbe,
0x9e,0xc6,0x27,0xbe,0x6a,0xea,0xf9,0xbe,0x41,0xa1,0x1c,0x3d,
0xe0,0x4c,0x0a,0xbf,0xd3,0xdf,0xa6,0x3e,0x4f,0xb1,0x8f,0xbe,
0x95,0xe7,0x3f,0x3e,0x74,0xea,0xcc,0x3e,0x12,0xad,0xe1,0xbe,
0x07,0x2f,0x2b,0x3d,0xd8,0xc0,0x8d,0x3e,0x29,0xe7,0xa7,0x3e,
0x03,0xa9,0x05,0x3f,0xc9,0xec,0xdb,0xbd,0xc9,0xc0,0xb9,0x3e,
0x2d,0x1e,0x94,0xbe,0xd0,0xd9,0x73,0x3e,0x98,0xea,0xf6,0xbd,
0xed,0xf7,0x09,0xbe,0xcd,0x5a,0x8e,0x3d,0x5a,0xda,0xf9,0x3e,
0xc8,0x75,0xa1,0xbe,0x5a,0x48,0xd9,0x3d,0xce,0xa8,0x38,0xbd,
0x65,0xaf,0xa7,0x3e,0x3b,0x37,0xe4,0x3c,0xce,0x3c,0x22,0x3c,
0x7b,0x17,0x40,0x3e,0xf6,0x1e,0xcc,0xbe,0x70,0x3e,0x5e,0x3f,
0x78,0xc4,0x76,0x3e,0x90,0x7b,0xfe,0x3e,0xec,0xfa,0x09,0x3f,
0xc6,0xd4,0xa0,0xbe,0x1f,0x5e,0xf2,0x3e,0x2e,0x10,0x97,0xbe,
0x97,0x70,0x10,0xbd,0x6d,0xff,0x1a,0xbe,0xc7,0x61,0x06,0xbe,
0x40,0xbb,0x77,0x3e,0x8f,0x2b,0x20,0x3e,0xb1,0x6f,0x16,0x3e,
0x9e,0xdc,0xc1,0x3c,0x8f,0x9d,0x44,0x3e,0x14,0xe2,0xf1,0x3d,
0xb2,0x86,0xaa,0x3d,0x7c,0x42,0xd5,0x3e,0xf0,0xf8,0xc0,0x3d,
0x08,0x4b,0xbe,0x3e,0x80,0x8b,0xde,0x3e,0x75,0x1b,0x70,0xbe,
0x2d,0xc6,0xe5,0xbd,0xf6,0x94,0x1e,0x3d,0xba,0xe0,0xfa,0xbd,
0x32,0x06,0xe8,0xbd,0xb9,0x19,0xdf,0x3d,0x5d,0x3d,0x1e,0x3e,
0x38,0xdc,0x6d,0xbe,0xe5,0x8e,0x1b,0xbe,0x52,0x0a,0x5e,0x3d,
0xe7,0x3a,0xe6,0x3e,0x4d,0xd7,0xa4,0xbb,0x7b,0x0a,0xa0,0x3e,
0x31,0x61,0x2d,0x3f,0x2c,0x52,0xa7,0x3e,0x14,0xba,0xd7,0xbe,
0xcf,0xb4,0xd0,0x3d,0xb8,0x17,0xdd,0xbe,0xc2,0x80,0x40,0x3e,
0x44,0x94,0x89,0xbe,0xb1,0x6a,0x77,0x3e,0x07,0x40,0x17,0xbd,
0xa2,0xb8,0x12,0xbe,0x8d,0x3b,0xaf,0xbd,0xf4,0x9a,0x0b,0xbf,
0x75,0x7a,0x7c,0x3d,0xe0,0xea,0x87,0xbe,0xd9,0x28,0x32,0x3e,
0xb9,0x0a,0x3f,0xbe,0xa2,0xe0,0xfa,0xbd,0x62,0x41,0xa2,0xbd,
0x15,0x7a,0x70,0xbe,0x72,0x67,0xd1,0xbd,0xcd,0xcf,0x37,0xbe,
0x97,0x82,0xbf,0xbd,0xb7,0x5e,0xb3,0xbe,0x79,0xa0,0x06,0x3f,
0x39,0x03,0x95,0xbe,0xf2,0x47,0x48,0xbe,0x0d,0x21,0x1b,0xbe,
0x73,0x13,0x4f,0xbd,0x43,0x03,0x36,0xbd,0xb2,0x98,0x16,0x3e,
0xf7,0xe2,0x82,0xbe,0xbb,0xa0,0xa2,0xbe,0x8c,0x68,0x00,0xbe,
0xb4,0xa3,0xa5,0x3c,0x7e,0x67,0x7e,0xbe,0x44,0x30,0xf5,0xbe,
0x56,0x37,0x45,0xbe,0x0b,0xc4,0x84,0xbe,0xde,0xe0,0xe3,0xbd,
0x84,0xef,0x93,0x3e,0xae,0xbd,0xd7,0x3d,0x97,0x5f,0xbc,0xbe,
0x6a,0x10,0x43,0xbe,0x76,0x79,0xdd,0xbd,0x4e,0x3b,0x08,0xbe,
0xf9,0xd9,0xb3,0x3e,0x9f,0xf9,0xcd,0xbe,0x1c,0x99,0x27,0x3b,
0xd8,0x45,0xda,0xbe,0xdd,0x76,0xdb,0xbe,0xd6,0x21,0xba,0x3e,
0x73,0x00,0x81,0x3e,0x14,0xda,0x52,0x3e,0x7d,0xd9,0x32,0xbe,
0xc7,0xb7,0xd8,0x3e,0x75,0xda,0x94,0x3e,0x62,0xbe,0xd7,0x3e,
0x91,0x91,0x86,0x3e,0x87,0xdf,0xb9,0xbe,0x22,0x9d,0xdf,0xbd,
0x3a,0xf2,0x5a,0x3d,0x1a,0x6b,0xd4,0x3e,0xc1,0xed,0xb9,0x3d,
0x3f,0x72,0xf9,0x3d,0xa1,0xbb,0xb3,0xbd,0x04,0xfb,0x36,0xbe,
0x5a,0xc0,0xcb,0xbe,0xb1,0xc6,0x93,0x3e,0x3b,0xd4,0x9e,0x3d,
0xef,0x19,0x58,0xba,0x76,0xb2,0x76,0x3e,0x64,0x2d,0x27,0x3e,
0xeb,0x4b,0x07,0x3f,0xa7,0xd5,0x05,0xbf,0xdf,0xd6,0xa5,0x3e,
0x6f,0x86,0x83,0xbd,0xcc,0xb1,0xd1,0x3d,0x2c,0x1a,0x69,0x3e,
0x39,0xd5,0x8c,0x3e,0x38,0x5e,0x09,0x3f,0x75,0xb1,0x89,0x3e,
0x13,0x26,0xdb,0x3e,0xd2,0x90,0x03,0x3d,0xbe,0x83,0xc6,0x3c,
0x50,0xf3,0x73,0x3e,0x94,0x0d,0xca,0x3e,0x1f,0xae,0x57,0x3e,
0x9e,0x7e,0xf5,0x3c,0xb1,0xf8,0x15,0xbf,0x17,0x5c,0x02,0xbe,
0x8e,0x81,0x70,0x3b,0x85,0x38,0x17,0x3d,0xb8,0x07,0x20,0xbe,
0xb2,0x82,0x39,0xbc,0xcc,0x09,0x29,0x3f,0xf0,0x04,0xbf,0x3e,
0x44,0x8d,0x80,0xbe,0x9c,0xfd,0xc0,0xbc,0x78,0x0c,0xa5,0xbe,
0xee,0xfa,0x64,0xbc,0x83,0x2b,0xb5,0xbe,0x71,0xd2,0x17,0xbf,
0xa2,0x4c,0x42,0x3f,0xe8,0x92,0xde,0x3d,0x7f,0x64,0x7f,0xbe,
0x53,0x0f,0xf7,0xbe,0xb9,0x1b,0xc1,0xbc,0x11,0x2d,0x6e,0x3e,
0xc3,0x89,0xae,0xbe,0x62,0xff,0xff,0xff,0x04,0x00,0x00,0x00,
0x08,0x00,0x00,0x00,0xff,0xff,0xff,0xff,0x17,0x00,0x00,0x00,
0x76,0xff,0xff,0xff,0x04,0x00,0x00,0x00,0x40,0x00,0x00,0x00,
0xb2,0x4f,0x18,0x3e,0xc0,0x7c,0x1b,0xbc,0xec,0x22,0x2e,0x3d,
0xb4,0x53,0x42,0x3d,0x0a,0x97,0x31,0x3e,0x09,0xc0,0x3d,0xbd,
0x70,0x04,0x20,0x3e,0x13,0x3c,0x76,0x3d,0x0a,0x81,0x08,0x3e,
0xf1,0xd4,0x51,0xbc,0xea,0x15,0xf0,0x3b,0xc3,0x20,0xc7,0xbd,
0xae,0x76,0xb9,0xbd,0x04,0x24,0x0a,0x3e,0x40,0x4d,0x9b,0x3d,
0x60,0xa8,0x5f,0x3c,0xc2,0xff,0xff,0xff,0x04,0x00,0x00,0x00,
0x20,0x00,0x00,0x00,0xe6,0xc3,0xe5,0xbc,0x99,0x7b,0x63,0x3e,
0xb6,0x64,0x28,0x3d,0x50,0x44,0x3f,0x3e,0xdf,0x52,0x2c,0x3d,
0xa0,0xd9,0x69,0x3e,0x67,0xfb,0x6e,0x3b,0x14,0x8e,0xfd,0xbc,
0xee,0xff,0xff,0xff,0x04,0x00,0x00,0x00,0x04,0x00,0x00,0x00,
0x76,0xba,0x3d,0x3e,0x00,0x00,0x06,0x00,0x08,0x00,0x04,0x00,
0x06,0x00,0x00,0x00,0x04,0x00,0x00,0x00,0x58,0x00,0x00,0x00,
0x20,0x01,0x72,0xbd,0xf7,0x00,0x32,0x3e,0xb8,0x7a,0xe7,0x3d,
0x91,0x6d,0xa3,0x3d,0x62,0x65,0xb2,0x3d,0x4a,0x0e,0x1f,0x3e,
0x50,0xbf,0xd0,0x3d,0x04,0x64,0x39,0x3e,0x48,0xd5,0x31,0x3c,
0xbd,0xf8,0xb5,0x3d,0x42,0x7d,0xc1,0x3d,0x77,0x48,0x15,0x3d,
0xe3,0x6a,0x2b,0xbd,0x06,0x0d,0x3c,0x3d,0xc6,0x51,0x5a,0xbb,
0x28,0xea,0x05,0x3e,0x14,0xf4,0x07,0x3d,0x89,0x3e,0x22,0x3e,
0x8f,0x7c,0x3a,0xbd,0xd8,0x17,0x13,0x3e,0x4b,0x1a,0xe2,0x3b,
0xe3,0x8c,0xa6,0x3d,0x0c,0xf8,0xff,0xff,0x10,0xf8,0xff,0xff,
0x0f,0x00,0x00,0x00,0x4d,0x4c,0x49,0x52,0x20,0x43,0x6f,0x6e,
0x76,0x65,0x72,0x74,0x65,0x64,0x2e,0x00,0x01,0x00,0x00,0x00,
0x14,0x00,0x00,0x00,0x00,0x00,0x0e,0x00,0x18,0x00,0x14,0x00,
0x10,0x00,0x0c,0x00,0x08,0x00,0x04,0x00,0x0e,0x00,0x00,0x00,
0x14,0x00,0x00,0x00,0x1c,0x00,0x00,0x00,0x80,0x01,0x00,0x00,
0x84,0x01,0x00,0x00,0x88,0x01,0x00,0x00,0x04,0x00,0x00,0x00,
0x6d,0x61,0x69,0x6e,0x00,0x00,0x00,0x00,0x06,0x00,0x00,0x00,
0x44,0x01,0x00,0x00,0xf4,0x00,0x00,0x00,0xa8,0x00,0x00,0x00,
0x6c,0x00,0x00,0x00,0x34,0x00,0x00,0x00,0x10,0x00,0x00,0x00,
0x00,0x00,0x0a,0x00,0x10,0x00,0x0c,0x00,0x08,0x00,0x04,0x00,
0x0a,0x00,0x00,0x00,0x0c,0x00,0x00,0x00,0x10,0x00,0x00,0x00,
0x02,0x00,0x00,0x00,0x01,0x00,0x00,0x00,0x0f,0x00,0x00,0x00,
0x01,0x00,0x00,0x00,0x0e,0x00,0x00,0x00,0x5a,0xff,0xff,0xff,
0x14,0x00,0x00,0x00,0x00,0x00,0x00,0x08,0x10,0x00,0x00,0x00,
0x14,0x00,0x00,0x00,0x01,0x00,0x00,0x00,0xc4,0xf8,0xff,0xff,
0x01,0x00,0x00,0x00,0x0e,0x00,0x00,0x00,0x03,0x00,0x00,0x00,
0x0d,0x00,0x00,0x00,0x09,0x00,0x00,0x00,0x02,0x00,0x00,0x00,
0x8e,0xff,0xff,0xff,0x14,0x00,0x00,0x00,0x00,0x00,0x00,0x08,
0x14,0x00,0x00,0x00,0x18,0x00,0x00,0x00,0x01,0x00,0x00,0x00,
0x7e,0xff,0xff,0xff,0x00,0x00,0x00,0x01,0x01,0x00,0x00,0x00,
0x0d,0x00,0x00,0x00,0x03,0x00,0x00,0x00,0x0c,0x00,0x00,0x00,
0x08,0x00,0x00,0x00,0x03,0x00,0x00,0x00,0xc6,0xff,0xff,0xff,
0x14,0x00,0x00,0x00,0x00,0x00,0x00,0x08,0x14,0x00,0x00,0x00,
0x18,0x00,0x00,0x00,0x01,0x00,0x00,0x00,0xb6,0xff,0xff,0xff,
0x00,0x00,0x00,0x01,0x01,0x00,0x00,0x00,0x0c,0x00,0x00,0x00,
0x03,0x00,0x00,0x00,0x0b,0x00,0x00,0x00,0x07,0x00,0x00,0x00,
0x04,0x00,0x00,0x00,0x00,0x00,0x0e,0x00,0x1a,0x00,0x14,0x00,
0x10,0x00,0x0c,0x00,0x0b,0x00,0x04,0x00,0x0e,0x00,0x00,0x00,
0x1c,0x00,0x00,0x00,0x00,0x00,0x00,0x08,0x1c,0x00,0x00,0x00,
0x20,0x00,0x00,0x00,0x01,0x00,0x00,0x00,0x00,0x00,0x06,0x00,
0x08,0x00,0x07,0x00,0x06,0x00,0x00,0x00,0x00,0x00,0x00,0x01,
0x01,0x00,0x00,0x00,0x0b,0x00,0x00,0x00,0x03,0x00,0x00,0x00,
0x0a,0x00,0x00,0x00,0x06,0x00,0x00,0x00,0x01,0x00,0x00,0x00,
0x00,0x00,0x0a,0x00,0x0c,0x00,0x00,0x00,0x08,0x00,0x04,0x00,
0x0a,0x00,0x00,0x00,0x08,0x00,0x00,0x00,0x0c,0x00,0x00,0x00,
0x01,0x00,0x00,0x00,0x0a,0x00,0x00,0x00,0x02,0x00,0x00,0x00,
0x00,0x00,0x00,0x00,0x05,0x00,0x00,0x00,0x01,0x00,0x00,0x00,
0x0f,0x00,0x00,0x00,0x01,0x00,0x00,0x00,0x00,0x00,0x00,0x00,
0x10,0x00,0x00,0x00,0xf8,0x05,0x00,0x00,0x8c,0x05,0x00,0x00,
0x1c,0x05,0x00,0x00,0xc4,0x04,0x00,0x00,0x6c,0x04,0x00,0x00,
0x20,0x04,0x00,0x00,0xc0,0x03,0x00,0x00,0x74,0x03,0x00,0x00,
0x28,0x03,0x00,0x00,0xdc,0x02,0x00,0x00,0x80,0x02,0x00,0x00,
0xf8,0x01,0x00,0x00,0x68,0x01,0x00,0x00,0xd8,0x00,0x00,0x00,
0x60,0x00,0x00,0x00,0x04,0x00,0x00,0x00,0x5e,0xfa,0xff,0xff,
0x00,0x00,0x00,0x01,0x14,0x00,0x00,0x00,0x1c,0x00,0x00,0x00,
0x1c,0x00,0x00,0x00,0x10,0x00,0x00,0x00,0x34,0x00,0x00,0x00,
0x02,0x00,0x00,0x00,0xff,0xff,0xff,0xff,0x01,0x00,0x00,0x00,
0x48,0xfa,0xff,0xff,0x19,0x00,0x00,0x00,0x53,0x74,0x61,0x74,
0x65,0x66,0x75,0x6c,0x50,0x61,0x72,0x74,0x69,0x74,0x69,0x6f,
0x6e,0x65,0x64,0x43,0x61,0x6c,0x6c,0x3a,0x30,0x00,0x00,0x00,
0x02,0x00,0x00,0x00,0x01,0x00,0x00,0x00,0x01,0x00,0x00,0x00,
0xb6,0xfa,0xff,0xff,0x00,0x00,0x00,0x01,0x14,0x00,0x00,0x00,
0x1c,0x00,0x00,0x00,0x1c,0x00,0x00,0x00,0x0f,0x00,0x00,0x00,
0x50,0x00,0x00,0x00,0x02,0x00,0x00,0x00,0xff,0xff,0xff,0xff,
0x01,0x00,0x00,0x00,0xa0,0xfa,0xff,0xff,0x34,0x00,0x00,0x00,
0x73,0x65,0x71,0x75,0x65,0x6e,0x74,0x69,0x61,0x6c,0x2f,0x64,
0x65,0x6e,0x73,0x65,0x5f,0x33,0x2f,0x4d,0x61,0x74,0x4d,0x75,
0x6c,0x3b,0x73,0x65,0x71,0x75,0x65,0x6e,0x74,0x69,0x61,0x6c,
0x2f,0x64,0x65,0x6e,0x73,0x65,0x5f,0x33,0x2f,0x42,0x69,0x61,
0x73,0x41,0x64,0x64,0x00,0x00,0x00,0x00,0x02,0x00,0x00,0x00,
0x01,0x00,0x00,0x00,0x01,0x00,0x00,0x00,0x2a,0xfb,0xff,0xff,
0x00,0x00,0x00,0x01,0x14,0x00,0x00,0x00,0x1c,0x00,0x00,0x00,
0x1c,0x00,0x00,0x00,0x0e,0x00,0x00,0x00,0x68,0x00,0x00,0x00,
0x02,0x00,0x00,0x00,0xff,0xff,0xff,0xff,0x08,0x00,0x00,0x00,
0x14,0xfb,0xff,0xff,0x4c,0x00,0x00,0x00,0x73,0x65,0x71,0x75,
0x65,0x6e,0x74,0x69,0x61,0x6c,0x2f,0x64,0x65,0x6e,0x73,0x65,
0x5f,0x32,0x2f,0x4d,0x61,0x74,0x4d,0x75,0x6c,0x3b,0x73,0x65,
0x71,0x75,0x65,0x6e,0x74,0x69,0x61,0x6c,0x2f,0x64,0x65,0x6e,
0x73,0x65,0x5f,0x32,0x2f,0x52,0x65,0x6c,0x75,0x3b,0x73,0x65,
0x71,0x75,0x65,0x6e,0x74,0x69,0x61,0x6c,0x2f,0x64,0x65,0x6e,
0x73,0x65,0x5f,0x32,0x2f,0x42,0x69,0x61,0x73,0x41,0x64,0x64,
0x00,0x00,0x00,0x00,0x02,0x00,0x00,0x00,0x01,0x00,0x00,0x00,
0x08,0x00,0x00,0x00,0xb6,0xfb,0xff,0xff,0x00,0x00,0x00,0x01,
0x14,0x00,0x00,0x00,0x1c,0x00,0x00,0x00,0x1c,0x00,0x00,0x00,
0x0d,0x00,0x00,0x00,0x68,0x00,0x00,0x00,0x02,0x00,0x00,0x00,
0xff,0xff,0xff,0xff,0x10,0x00,0x00,0x00,0xa0,0xfb,0xff,0xff,
0x4c,0x00,0x00,0x00,0x73,0x65,0x71,0x75,0x65,0x6e,0x74,0x69,
0x61,0x6c,0x2f,0x64,0x65,0x6e,0x73,0x65,0x5f,0x31,0x2f,0x4d,
0x61,0x74,0x4d,0x75,0x6c,0x3b,0x73,0x65,0x71,0x75,0x65,0x6e,
0x74,0x69,0x61,0x6c,0x2f,0x64,0x65,0x6e,0x73,0x65,0x5f,0x31,
0x2f,0x52,0x65,0x6c,0x75,0x3b,0x73,0x65,0x71,0x75,0x65,0x6e,
0x74,0x69,0x61,0x6c,0x2f,0x64,0x65,0x6e,0x73,0x65,0x5f,0x31,
0x2f,0x42,0x69,0x61,0x73,0x41,0x64,0x64,0x00,0x00,0x00,0x00,
0x02,0x00,0x00,0x00,0x01,0x00,0x00,0x00,0x10,0x00,0x00,0x00,
0x42,0xfc,0xff,0xff,0x00,0x00,0x00,0x01,0x14,0x00,0x00,0x00,
0x1c,0x00,0x00,0x00,0x1c,0x00,0x00,0x00,0x0c,0x00,0x00,0x00,
0x60,0x00,0x00,0x00,0x02,0x00,0x00,0x00,0xff,0xff,0xff,0xff,
0x16,0x00,0x00,0x00,0x2c,0xfc,0xff,0xff,0x46,0x00,0x00,0x00,
0x73,0x65,0x71,0x75,0x65,0x6e,0x74,0x69,0x61,0x6c,0x2f,0x64,
0x65,0x6e,0x73,0x65,0x2f,0x4d,0x61,0x74,0x4d,0x75,0x6c,0x3b,
0x73,0x65,0x71,0x75,0x65,0x6e,0x74,0x69,0x61,0x6c,0x2f,0x64,
0x65,0x6e,0x73,0x65,0x2f,0x52,0x65,0x6c,0x75,0x3b,0x73,0x65,
0x71,0x75,0x65,0x6e,0x74,0x69,0x61,0x6c,0x2f,0x64,0x65,0x6e,
0x73,0x65,0x2f,0x42,0x69,0x61,0x73,0x41,0x64,0x64,0x00,0x00,
0x02,0x00,0x00,0x00,0x01,0x00,0x00,0x00,0x16,0x00,0x00,0x00,
0xc6,0xfc,0xff,0xff,0x00,0x00,0x00,0x01,0x14,0x00,0x00,0x00,
0x1c,0x00,0x00,0x00,0x1c,0x00,0x00,0x00,0x0b,0x00,0x00,0x00,
0x34,0x00,0x00,0x00,0x02,0x00,0x00,0x00,0xff,0xff,0xff,0xff,
0x17,0x00,0x00,0x00,0xb0,0xfc,0xff,0xff,0x1a,0x00,0x00,0x00,
0x73,0x65,0x71,0x75,0x65,0x6e,0x74,0x69,0x61,0x6c,0x2f,0x66,
0x6c,0x61,0x74,0x74,0x65,0x6e,0x2f,0x52,0x65,0x73,0x68,0x61,
0x70,0x65,0x00,0x00,0x02,0x00,0x00,0x00,0x01,0x00,0x00,0x00,
0x17,0x00,0x00,0x00,0x86,0xfd,0xff,0xff,0x00,0x00,0x00,0x01,
0x10,0x00,0x00,0x00,0x10,0x00,0x00,0x00,0x0a,0x00,0x00,0x00,
0x28,0x00,0x00,0x00,0xf8,0xfc,0xff,0xff,0x19,0x00,0x00,0x00,
0x73,0x65,0x71,0x75,0x65,0x6e,0x74,0x69,0x61,0x6c,0x2f,0x64,
0x65,0x6e,0x73,0x65,0x5f,0x33,0x2f,0x4d,0x61,0x74,0x4d,0x75,
0x6c,0x00,0x00,0x00,0x02,0x00,0x00,0x00,0x01,0x00,0x00,0x00,
0x08,0x00,0x00,0x00,0xce,0xfd,0xff,0xff,0x00,0x00,0x00,0x01,
0x10,0x00,0x00,0x00,0x10,0x00,0x00,0x00,0x09,0x00,0x00,0x00,
0x28,0x00,0x00,0x00,0x40,0xfd,0xff,0xff,0x19,0x00,0x00,0x00,
0x73,0x65,0x71,0x75,0x65,0x6e,0x74,0x69,0x61,0x6c,0x2f,0x64,
0x65,0x6e,0x73,0x65,0x5f,0x32,0x2f,0x4d,0x61,0x74,0x4d,0x75,
0x6c,0x00,0x00,0x00,0x02,0x00,0x00,0x00,0x08,0x00,0x00,0x00,
0x10,0x00,0x00,0x00,0x16,0xfe,0xff,0xff,0x00,0x00,0x00,0x01,
0x10,0x00,0x00,0x00,0x10,0x00,0x00,0x00,0x08,0x00,0x00,0x00,
0x28,0x00,0x00,0x00,0x88,0xfd,0xff,0xff,0x19,0x00,0x00,0x00,
0x73,0x65,0x71,0x75,0x65,0x6e,0x74,0x69,0x61,0x6c,0x2f,0x64,
0x65,0x6e,0x73,0x65,0x5f,0x31,0x2f,0x4d,0x61,0x74,0x4d,0x75,
0x6c,0x00,0x00,0x00,0x02,0x00,0x00,0x00,0x10,0x00,0x00,0x00,
0x16,0x00,0x00,0x00,0x5e,0xfe,0xff,0xff,0x00,0x00,0x00,0x01,
0x10,0x00,0x00,0x00,0x10,0x00,0x00,0x00,0x07,0x00,0x00,0x00,
0x24,0x00,0x00,0x00,0xd0,0xfd,0xff,0xff,0x17,0x00,0x00,0x00,
0x73,0x65,0x71,0x75,0x65,0x6e,0x74,0x69,0x61,0x6c,0x2f,0x64,
0x65,0x6e,0x73,0x65,0x2f,0x4d,0x61,0x74,0x4d,0x75,0x6c,0x00,
0x02,0x00,0x00,0x00,0x16,0x00,0x00,0x00,0x17,0x00,0x00,0x00,
0x00,0x00,0x16,0x00,0x1c,0x00,0x18,0x00,0x17,0x00,0x10,0x00,
0x0c,0x00,0x08,0x00,0x00,0x00,0x00,0x00,0x00,0x00,0x07,0x00,
0x16,0x00,0x00,0x00,0x00,0x00,0x00,0x01,0x14,0x00,0x00,0x00,
0x14,0x00,0x00,0x00,0x06,0x00,0x00,0x00,0x00,0x00,0x00,0x02,
0x28,0x00,0x00,0x00,0x30,0xfe,0xff,0xff,0x18,0x00,0x00,0x00,
0x73,0x65,0x71,0x75,0x65,0x6e,0x74,0x69,0x61,0x6c,0x2f,0x66,
0x6c,0x61,0x74,0x74,0x65,0x6e,0x2f,0x43,0x6f,0x6e,0x73,0x74,
0x00,0x00,0x00,0x00,0x01,0x00,0x00,0x00,0x02,0x00,0x00,0x00,
0x02,0xff,0xff,0xff,0x00,0x00,0x00,0x01,0x10,0x00,0x00,0x00,
0x10,0x00,0x00,0x00,0x05,0x00,0x00,0x00,0x38,0x00,0x00,0x00,
0x74,0xfe,0xff,0xff,0x29,0x00,0x00,0x00,0x73,0x65,0x71,0x75,
0x65,0x6e,0x74,0x69,0x61,0x6c,0x2f,0x64,0x65,0x6e,0x73,0x65,
0x5f,0x31,0x2f,0x42,0x69,0x61,0x73,0x41,0x64,0x64,0x2f,0x52,
0x65,0x61,0x64,0x56,0x61,0x72,0x69,0x61,0x62,0x6c,0x65,0x4f,
0x70,0x00,0x00,0x00,0x01,0x00,0x00,0x00,0x10,0x00,0x00,0x00,
0x56,0xff,0xff,0xff,0x00,0x00,0x00,0x01,0x10,0x00,0x00,0x00,
0x10,0x00,0x00,0x00,0x04,0x00,0x00,0x00,0x38,0x00,0x00,0x00,
0xc8,0xfe,0xff,0xff,0x29,0x00,0x00,0x00,0x73,0x65,0x71,0x75,
0x65,0x6e,0x74,0x69,0x61,0x6c,0x2f,0x64,0x65,0x6e,0x73,0x65,
0x5f,0x32,0x2f,0x42,0x69,0x61,0x73,0x41,0x64,0x64,0x2f,0x52,
0x65,0x61,0x64,0x56,0x61,0x72,0x69,0x61,0x62,0x6c,0x65,0x4f,
0x70,0x00,0x00,0x00,0x01,0x00,0x00,0x00,0x08,0x00,0x00,0x00,
0xaa,0xff,0xff,0xff,0x00,0x00,0x00,0x01,0x10,0x00,0x00,0x00,
0x10,0x00,0x00,0x00,0x03,0x00,0x00,0x00,0x38,0x00,0x00,0x00,
0x1c,0xff,0xff,0xff,0x29,0x00,0x00,0x00,0x73,0x65,0x71,0x75,
0x65,0x6e,0x74,0x69,0x61,0x6c,0x2f,0x64,0x65,0x6e,0x73,0x65,
0x5f,0x33,0x2f,0x42,0x69,0x61,0x73,0x41,0x64,0x64,0x2f,0x52,
0x65,0x61,0x64,0x56,0x61,0x72,0x69,0x61,0x62,0x6c,0x65,0x4f,
0x70,0x00,0x00,0x00,0x01,0x00,0x00,0x00,0x01,0x00,0x00,0x00,
0x00,0x00,0x16,0x00,0x18,0x00,0x14,0x00,0x00,0x00,0x10,0x00,
0x0c,0x00,0x08,0x00,0x00,0x00,0x00,0x00,0x00,0x00,0x07,0x00,
0x16,0x00,0x00,0x00,0x00,0x00,0x00,0x01,0x10,0x00,0x00,0x00,
0x10,0x00,0x00,0x00,0x02,0x00,0x00,0x00,0x34,0x00,0x00,0x00,
0x88,0xff,0xff,0xff,0x27,0x00,0x00,0x00,0x73,0x65,0x71,0x75,
0x65,0x6e,0x74,0x69,0x61,0x6c,0x2f,0x64,0x65,0x6e,0x73,0x65,
0x2f,0x42,0x69,0x61,0x73,0x41,0x64,0x64,0x2f,0x52,0x65,0x61,
0x64,0x56,0x61,0x72,0x69,0x61,0x62,0x6c,0x65,0x4f,0x70,0x00,
0x01,0x00,0x00,0x00,0x16,0x00,0x00,0x00,0x00,0x00,0x16,0x00,
0x1c,0x00,0x18,0x00,0x00,0x00,0x14,0x00,0x10,0x00,0x0c,0x00,
0x00,0x00,0x00,0x00,0x08,0x00,0x07,0x00,0x16,0x00,0x00,0x00,
0x00,0x00,0x00,0x01,0x14,0x00,0x00,0x00,0x20,0x00,0x00,0x00,
0x20,0x00,0x00,0x00,0x01,0x00,0x00,0x00,0x3c,0x00,0x00,0x00,
0x02,0x00,0x00,0x00,0xff,0xff,0xff,0xff,0x17,0x00,0x00,0x00,
0x04,0x00,0x04,0x00,0x04,0x00,0x00,0x00,0x1f,0x00,0x00,0x00,
0x73,0x65,0x72,0x76,0x69,0x6e,0x67,0x5f,0x64,0x65,0x66,0x61,
0x75,0x6c,0x74,0x5f,0x66,0x6c,0x61,0x74,0x74,0x65,0x6e,0x5f,
0x69,0x6e,0x70,0x75,0x74,0x3a,0x30,0x00,0x02,0x00,0x00,0x00,
0x01,0x00,0x00,0x00,0x17,0x00,0x00,0x00,0x03,0x00,0x00,0x00,
0x30,0x00,0x00,0x00,0x14,0x00,0x00,0x00,0x04,0x00,0x00,0x00,
0xe8,0xff,0xff,0xff,0x0e,0x00,0x00,0x00,0x00,0x00,0x00,0x0e,
0xf4,0xff,0xff,0xff,0x09,0x00,0x00,0x00,0x00,0x00,0x00,0x09,
0x0c,0x00,0x0c,0x00,0x0b,0x00,0x00,0x00,0x00,0x00,0x04,0x00,
0x0c,0x00,0x00,0x00,0x16,0x00,0x00,0x00,0x00,0x00,0x00,0x16

};

#endif //GLIOMADF_MODEL_ESP32_H